// SBP+MLP  8->8->4  108 bytes
// hidden_bias_scale = 85
// output_bias_scale = 109

F8
FA
EA
FC
EB
E5
D4
F1
27
2D
14
D4
22
EA
08
DF
27
50
EC
F9
FB
EC
03
37
21
DD
F9
D1
11
E6
2A
DD
23
46
F9
03
10
05
17
24
17
15
18
0D
29
2A
13
F4
00
81
F0
10
EA
4A
D7
F2
E9
C3
03
D9
F3
CE
E8
BE
49
EC
D4
19
B3
AB
37
7F
2A
C4
8F
B1
F2
3B
2E
16
E2
E2
56
C1
38
F1
D8
91
DB
38
15
FE
1F
27
81
AC
22
D0
9A
19
8F
D5
1C
16
DC
81
8D
C5
